TRT-100300-EntropyCalibration2
images: 3d816c42
/model.0/conv/Conv_output_0: 40cc374a
/model.0/act/Sigmoid_output_0: 3c010a14
/model.0/act/Mul_output_0: 40cc5271
/model.1/conv/Conv_output_0: 416ef9dd
/model.1/act/Sigmoid_output_0: 3c010a14
/model.1/act/Mul_output_0: 4115641e
/model.2/cv1/conv/Conv_output_0: 41156c48
/model.2/cv1/act/Sigmoid_output_0: 3c021427
/model.2/cv1/act/Mul_output_0: 3f8afe8c
/model.14/m.0/Concat_output_0: 3e0ad75c
/model.21/Reshape_7_output_0: 3f000800
/model.21/cv3.0/cv3.0.0/cv3.0.0.1/conv/Conv_output_0: 3ebd5091
ONNXTRT_Broadcast_579_output: 3ab67d3d
/model.14/cv1/act/Mul_output_0: 3e110ff7
/model.8/m.1/m.1.1/attn/Split_output_2: 3e6c6213
/model.2/Split_output_0: 3f8ff9e8
/model.21/cv3.1/cv3.1.1/cv3.1.1.1/act/Mul_output_0: 3f016eac
/model.21/cv2.0/cv2.0.0/conv/Conv_output_0: 3e46f2f2
/model.21/cv2.2/cv2.2.1/act/Sigmoid_output_0: 3c010a14
/model.2/Split_output_1: 3f520b87
/model.2/m.0/cv1/conv/Conv_output_0: 3f42617f
/model.2/m.0/cv1/act/Sigmoid_output_0: 3c00d0fd
/model.2/m.0/cv1/act/Mul_output_0: 3f3cebbb
/model.2/m.0/cv2/conv/Conv_output_0: 3f967b4b
/model.2/m.0/cv2/act/Sigmoid_output_0: 3c010a14
/model.2/m.0/cv2/act/Mul_output_0: 3f1456eb
/model.2/m.0/Add_output_0: 3fb1f248
/model.2/Concat_output_0: 3fb34003
/model.2/cv2/conv/Conv_output_0: 3ff4fb44
/model.2/cv2/act/Sigmoid_output_0: 3c031421
/model.2/cv2/act/Mul_output_0: 3fbb92de
/model.3/conv/Conv_output_0: 3f09673c
/model.3/act/Sigmoid_output_0: 3c0192f1
/model.3/act/Mul_output_0: 3eeda0af
/model.4/cv1/conv/Conv_output_0: 3f50cb7e
/model.4/cv1/act/Sigmoid_output_0: 3c011004
/model.4/cv1/act/Mul_output_0: 3ea70ebd
/model.21/Sub_output_0: 3efeb07a
/model.8/m.0/m.0.1/Add_1_output_0: 3ece5309
/model.10/Concat_output_0: 3e1a6d7f
/model.8/m.1/m.1.1/attn/Add_output_0: 3e8a3add
/model.14/m.0/m/m.1/cv1/conv/Conv_output_0: 3e0f8976
/model.18/act/Mul_output_0: 3d9242ed
/model.4/Split_output_0: 3ea0fb96
/model.17/cv2/act/Mul_output_0: 3d6ee68d
/model.20/m.0/cv3/conv/Conv_output_0: 3ea9f87c
/model.20/Concat_output_0: 3e3ff8f1
/model.4/Split_output_1: 3de76536
/model.4/m.0/cv1/conv/Conv_output_0: 3e3cf219
/model.4/m.0/cv1/act/Sigmoid_output_0: 3c00ed6c
/model.4/m.0/cv1/act/Mul_output_0: 3ddf6357
/model.4/m.0/cv2/conv/Conv_output_0: 3eb9a72f
/model.4/m.0/cv2/act/Sigmoid_output_0: 3c025080
/model.4/m.0/cv2/act/Mul_output_0: 3e1ab3b0
/model.4/m.0/Add_output_0: 3e61c06a
/model.4/Concat_output_0: 3eb73571
/model.4/cv2/conv/Conv_output_0: 3e6d0d5a
/model.4/cv2/act/Sigmoid_output_0: 3c011066
/model.4/cv2/act/Mul_output_0: 3ea80a7d
/model.5/conv/Conv_output_0: 3e993b34
/model.5/act/Sigmoid_output_0: 3c0111ad
/model.5/act/Mul_output_0: 3e3c156f
/model.6/cv1/conv/Conv_output_0: 3e80493b
/model.6/cv1/act/Sigmoid_output_0: 3c011222
/model.6/cv1/act/Mul_output_0: 3e852084
/model.21/Range_3_output_0: 3e7a0387
/model.17/m.0/cv1/conv/Conv_output_0: 3d9584fb
/model.6/m.0/m.0.0/attn/qkv/conv/Conv_output_0: 3e94b6f0
/model.17/m.0/Concat_output_0: 3e0499c8
/model.8/m.1/m.1.1/Add_output_0: 3f6abec1
ONNXTRT_ShapeShuffle_611_output: 0
/model.20/m.0/m/m.0/cv2/conv/Conv_output_0: 3ea2d90a
/model.21/cv3.2/cv3.2.0/cv3.2.0.1/act/Mul_output_0: 3edfecc5
/model.21/cv2.2/cv2.2.1/act/Mul_output_0: 3db38754
/model.14/m.0/m/m.0/cv2/conv/Conv_output_0: 3e1601b3
/model.8/m.1/m.1.1/attn/Reshape_1_output_0: 3e0ef437
/model.17/m.0/m/m.0/cv2/act/Mul_output_0: 3d843555
/model.20/m.0/m/m.0/Add_output_0: 3d901e94
/model.21/Unsqueeze_6_output_0: 3e7e0bd8
/model.21/cv2.1/cv2.1.0/act/Sigmoid_output_0: 3c020704
/model.21/cv2.0/cv2.0.1/conv/Conv_output_0: 3eb7e96d
/model.14/m.0/cv1/conv/Conv_output_0: 3da7671e
/model.20/m.0/cv1/conv/Conv_output_0: 3d99ac9a
/model.21/cv2.1/cv2.1.1/act/Mul_output_0: 3e26614f
/model.20/m.0/m/m.1/Add_output_0: 3db41bad
/model.20/cv1/act/Mul_output_0: 3df5946f
/model.21/Unsqueeze_7_output_0: 3e7e0bd8
ONNXTRT_Broadcast_700_output: 3b810a14
/model.17/m.0/m/m.1/Add_output_0: 3dac23cb
/model.11/cv2/act/Mul_output_0: 3dac5854
/model.11/m.0/m/m.0/cv2/conv/Conv_output_0: 3e230247
/model.21/dfl/conv/Conv_output_0: 3dee18a4
/model.8/cv2/act/Sigmoid_output_0: 3c010ef6
/model.20/m.0/cv3/act/Sigmoid_output_0: 3c011033
output0: 4081b2bf
/model.8/m.0/m.0.1/attn/Split_output_0: 3e861ec2
/model.21/Expand_output_0: 3f000800
ONNXTRT_ShapeShuffle_705_output: 0
/model.21/Constant_67_output_0_output: 3c810a14
/model.14/m.0/m/m.0/cv1/act/Mul_output_0: 3d99e266
/model.21/cv3.0/cv3.0.2/Conv_output_0: 3fad2df3
/model.21/cv2.1/cv2.1.1/act/Sigmoid_output_0: 3c010a14
/model.8/m.0/m.0.1/attn/Mul_1_output_0: 403dfbb1
/model.20/m.0/cv2/act/Mul_output_0: 3da327fb
/model.21/cv2.1/cv2.1.1/conv/Conv_output_0: 3efcec79
/model.21/Range_2_output_0: 3e7a0387
/model.21/cv3.1/cv3.1.0/cv3.1.0.0/act/Sigmoid_output_0: 3c010a14
/model.21/Squeeze_2_output_0_output: 3e810a14
/model.21/cv3.1/cv3.1.1/cv3.1.1.1/act/Sigmoid_output_0: 3c010a14
/model.14/cv1/conv/Conv_output_0: 3e4d592a
/model.8/m.1/m.1.0/mlp/mlp.0/conv/Conv_output_0: 3e742926
/model.21/cv2.0/cv2.0.1/act/Sigmoid_output_0: 3c010a14
/model.6/m.0/m.0.0/attn/Reshape_output_0: 3e94b6f0
/model.11/m.0/m/m.0/cv1/conv/Conv_output_0: 3e8a903a
/model.6/m.0/m.0.0/attn/Transpose_output_0: 3e94b6f0
/model.21/dfl/Reshape_1_output_0: 3dee18a4
/model.21/cv2.0/cv2.0.1/act/Mul_output_0: 3daf70bd
/model.6/m.0/m.0.0/attn/Reshape_1_output_0: 3e94b6f0
ONNXTRT_ShapeShuffle_781_output: 3c010a14
/model.20/m.0/m/m.1/cv1/conv/Conv_output_0: 3e8ecc41
/model.21/cv3.0/cv3.0.0/cv3.0.0.0/conv/Conv_output_0: 3f84292e
ONNXTRT_ShapeShuffle_697_output: 3c010a14
/model.14/m.0/cv3/conv/Conv_output_0: 3db63e42
/model.21/dfl/Softmax_output_0: 3bd7f3ef
/model.17/m.0/cv2/conv/Conv_output_0: 3eb2cb99
/model.11/m.0/m/m.1/cv2/conv/Conv_output_0: 3e93ff97
/model.20/m.0/cv1/act/Sigmoid_output_0: 3bfc9bd2
/model.11/m.0/cv3/conv/Conv_output_0: 3e776758
/model.17/m.0/m/m.1/cv1/act/Mul_output_0: 3ce1ed04
/model.21/Range_4_output_0: 3df1f2e6
/model.17/m.0/m/m.0/cv2/conv/Conv_output_0: 3e1590d3
/model.21/cv2.2/cv2.2.0/conv/Conv_output_0: 3e82fd9f
/model.6/m.0/m.0.0/attn/Reshape_2_output_0: 3e94b6f0
/model.20/m.0/cv2/act/Sigmoid_output_0: 3c01f394
/model.20/m.0/m/m.0/cv1/conv/Conv_output_0: 3e88719b
/model.6/m.0/m.0.0/attn/Transpose_1_output_0: 3e94b6f0
/model.15/act/Sigmoid_output_0: 3c01d35c
/model.20/cv1/conv/Conv_output_0: 3ea3e78d
/model.21/cv2.1/cv2.1.0/act/Mul_output_0: 3d1e6808
/model.21/Expand_4_output_0: 3dfa0387
/model.21/Constant_14_output_0_output: 0
/model.11/cv1/act/Mul_output_0: 3e8e225a
/model.6/m.0/m.0.0/attn/Split_output_0: 3e600807
/model.14/m.0/m/m.1/cv1/act/Sigmoid_output_0: 3c012756
(Unnamed Layer* 1287) [Constant]_output: 0
/model.21/Concat_2_output_0: 40875a76
/model.6/m.0/m.0.0/attn/Split_output_1: 3e9209cf
/model.21/Reshape_8_output_0: 3e7e0bd8
/model.16/Concat_output_0: 3e57ed6d
/model.17/m.0/m/m.1/cv2/act/Sigmoid_output_0: 3c04182e
/model.6/m.0/m.0.0/attn/Split_output_2: 3e9c6e86
/model.6/m.0/m.0.0/attn/Transpose_2_output_0: 3e600807
/model.6/m.0/m.0.0/attn/Transpose_5_output_0: 3e9c6e86
/model.6/m.0/m.0.0/attn/MatMul_output_0: 41ca8b17
/model.6/m.0/m.0.0/attn/Constant_15_output_0_output: 3ab67d3d
ONNXTRT_Broadcast_output: 3ab67d3d
/model.6/m.0/m.0.0/attn/Mul_3_output_0: 408f3842
/model.6/m.0/m.0.0/attn/Softmax_output: 3a9f1626
/model.6/m.0/m.0.0/attn/Softmax_output_0: 3a9f1626
ONNXTRT_Broadcast_710_output: 3e010a14
/model.21/cv3.0/cv3.0.1/cv3.0.1.0/act/Sigmoid_output_0: 3c010a14
/model.6/m.0/m.0.0/attn/Transpose_3_output_0: 3a9f1626
/model.6/m.0/m.0.0/attn/MatMul_1_output_0: 3e5308e2
/model.6/m.0/m.0.0/attn/Transpose_4_output_0: 3e5308e2
/model.6/m.0/m.0.0/attn/Reshape_3_output_0: 3e5308e2
/model.21/Reshape_6_output_0: 3f000800
/model.8/m.1/m.1.0/mlp/mlp.1/conv/Conv_output_0: 3e614eab
/model.14/m.0/cv1/act/Mul_output_0: 3d99b66a
/model.8/m.1/m.1.0/mlp/mlp.0/act/Sigmoid_output_0: 3c009795
/model.14/Concat_output_0: 3db0bd03
/model.6/m.0/m.0.0/attn/Reshape_5_output_0: 3e5308e2
/model.6/m.0/m.0.0/attn/Reshape_6_output_0: 3e9c6e86
/model.6/m.0/m.0.0/attn/Transpose_6_output_0: 3e5308e2
/model.6/m.0/m.0.0/attn/Transpose_7_output_0: 3e9c6e86
/model.6/m.0/m.0.0/attn/pe/conv/Conv_output_0: 3ea8dc73
/model.6/m.0/m.0.0/attn/Add_output_0: 3ea89411
/model.6/m.0/m.0.0/attn/proj/conv/Conv_output_0: 3e8e62fb
/model.6/m.0/m.0.0/Add_output_0: 3ec4ea83
/model.6/m.0/m.0.0/mlp/mlp.0/conv/Conv_output_0: 3e8be442
/model.6/m.0/m.0.0/mlp/mlp.0/act/Sigmoid_output_0: 3c0101f4
/model.6/m.0/m.0.0/mlp/mlp.0/act/Mul_output_0: 3e09b4c2
/model.6/m.0/m.0.0/mlp/mlp.1/conv/Conv_output_0: 3e9eb3cb
/model.6/m.0/m.0.0/Add_1_output_0: 3f4e18df
/model.8/m.1/m.1.0/attn/proj/conv/Conv_output_0: 3ec65e43
/model.8/m.1/m.1.0/attn/Transpose_4_output_0: 3e13301c
/model.6/m.0/m.0.1/attn/qkv/conv/Conv_output_0: 3ea25d00
/model.21/cv3.2/cv3.2.1/cv3.2.1.0/conv/Conv_output_0: 3f84fdd8
/model.14/m.0/cv2/act/Sigmoid_output_0: 3c021174
/model.8/m.1/m.1.0/attn/Softmax_output: 3b00e175
/model.8/m.1/m.1.0/attn/Transpose_3_output_0: 3b00e175
/model.8/m.1/m.1.0/attn/Mul_1_output_0: 3facaedd
/model.8/m.1/m.1.0/attn/Reshape_3_output_0: 3e922247
/model.21/cv3.2/cv3.2.1/cv3.2.1.0/act/Mul_output_0: 3fdcf2af
/model.20/m.0/m/m.0/cv2/act/Sigmoid_output_0: 3c0108cd
/model.21/cv3.1/cv3.1.1/cv3.1.1.0/conv/Conv_output_0: 3fb53092
/model.20/Split_output_1: 3d9ba57d
/model.11/m.0/cv1/act/Mul_output_0: 3dbced6b
/model.8/m.1/m.1.1/attn/Reshape_output_0: 3e0ef437
/model.8/m.1/m.1.0/attn/Transpose_output_0: 3e29ad83
ONNXTRT_Broadcast_794_output: 3b810a14
/model.17/m.0/m/m.0/cv1/act/Mul_output_0: 3d9caa95
/model.8/m.0/m.0.1/attn/Add_output_0: 3e747d2b
/model.11/cv2/conv/Conv_output_0: 3e78ed24
/model.17/cv2/conv/Conv_output_0: 3e76f6b1
/model.21/cv3.0/cv3.0.0/cv3.0.0.0/act/Mul_output_0: 3fa1ed5c
/model.8/m.1/m.1.1/attn/Reshape_3_output_0: 3e6c6213
/model.21/cv2.2/cv2.2.1/conv/Conv_output_0: 3ef298f7
/model.21/Range_output_0: 3efe0bd8
/model.21/cv3.2/cv3.2.0/cv3.2.0.1/act/Sigmoid_output_0: 3c01f3e4
/model.14/m.0/m/m.1/cv2/act/Sigmoid_output_0: 3c2d6ac8
/model.21/cv3.0/cv3.0.1/cv3.0.1.0/conv/Conv_output_0: 4030ed85
/model.8/Concat_output_0: 3f29ae65
/model.8/m.1/m.1.1/attn/MatMul_1_output_0: 3e0612c1
/model.8/m.1/m.1.1/mlp/mlp.1/conv/Conv_output_0: 3e867980
/model.17/m.0/cv3/conv/Conv_output_0: 3e6e712c
/model.21/cv3.2/cv3.2.0/cv3.2.0.1/conv/Conv_output_0: 3ef89eb7
/model.11/m.0/m/m.0/cv2/act/Mul_output_0: 3d709f80
ONNXTRT_Broadcast_512_output: 3ab67d3d
/model.11/m.0/cv2/conv/Conv_output_0: 3f1b0ce9
/model.8/m.1/m.1.0/attn/Split_output_2: 3e922247
/model.8/m.1/m.1.0/attn/Split_output_1: 3e9ffe81
/model.21/cv3.2/cv3.2.0/cv3.2.0.0/act/Mul_output_0: 3f5a8824
/model.21/cv3.2/cv3.2.0/cv3.2.0.0/act/Sigmoid_output_0: 3c010a14
/model.6/m.0/m.0.1/attn/Reshape_output_0: 3ea25d00
/model.21/Expand_2_output_0: 3e7e0bd8
/model.6/m.0/m.0.1/attn/Transpose_output_0: 3ea25d00
ONNXTRT_Broadcast_933_output: 3c810a14
/model.6/m.0/m.0.1/attn/Reshape_1_output_0: 3ea25d00
/model.21/Unsqueeze_9_output_0: 3dfa0387
/model.8/m.1/m.1.0/attn/Transpose_1_output_0: 3e29ad83
/model.21/Concat_10_output_0: 3f000800
/model.8/m.1/m.1.0/attn/Reshape_1_output_0: 3e29ad83
/model.18/conv/Conv_output_0: 3e436476
/model.21/Squeeze_output_0_output: 3d810a14
/model.21/Expand_5_output_0: 3dfa0387
/model.8/m.1/m.1.0/Add_1_output_0: 3f0cf307
/model.21/cv2.2/cv2.2.0/act/Sigmoid_output_0: 3c00eb18
/model.17/m.0/m/m.1/cv2/act/Mul_output_0: 3d91fdf8
/model.8/m.1/m.1.1/attn/Split_output_0: 3e45cb45
/model.6/m.0/m.0.1/attn/Reshape_2_output_0: 3ea25d00
/model.14/cv1/act/Sigmoid_output_0: 3c037203
/model.6/m.0/m.0.1/attn/Transpose_1_output_0: 3ea25d00
/model.8/m.1/m.1.0/attn/Reshape_output_0: 3e29ad83
/model.21/Unsqueeze_12_output_0: 3f000800
/model.21/cv2.0/cv2.0.0/act/Sigmoid_output_0: 3c074c37
/model.8/m.1/m.1.1/attn/Transpose_2_output_0: 3e45cb45
/model.21/Transpose_1_output_0: 3e810a14
/model.8/m.0/m.0.1/attn/Transpose_3_output_0: 3b014243
/model.6/m.0/m.0.1/attn/Split_output_0: 3e81719f
/model.21/dfl/Softmax_output: 3bd7f3ef
/model.11/m.0/cv1/conv/Conv_output_0: 3e2cc3a2
/model.8/m.1/m.1.0/attn/MatMul_1_output_0: 3e13301c
/model.6/m.0/m.0.1/attn/Split_output_1: 3ea25d00
/model.14/m.0/m/m.0/cv2/act/Sigmoid_output_0: 3c030628
/model.21/cv2.2/cv2.2.0/act/Mul_output_0: 3d8c9656
/model.14/m.0/m/m.1/cv2/conv/Conv_output_0: 3e0ddbb8
/model.6/m.0/m.0.1/attn/Split_output_2: 3e5cf437
/model.6/m.0/m.0.1/attn/Transpose_2_output_0: 3e81719f
/model.6/m.0/m.0.1/attn/Transpose_5_output_0: 3e5cf437
/model.6/m.0/m.0.1/attn/MatMul_output_0: 42b50221
ONNXTRT_Broadcast_160_output: 3ab67d3d
/model.6/m.0/m.0.1/attn/Mul_3_output_0: 417ffc03
/model.6/m.0/m.0.1/attn/Softmax_output: 3b013bb4
/model.6/m.0/m.0.1/attn/Softmax_output_0: 3b013bb4
/model.8/m.1/m.1.1/attn/Softmax_output: 3a8b861d
/model.11/m.0/m/m.1/cv1/conv/Conv_output_0: 3ea1f498
/model.6/m.0/m.0.1/attn/Transpose_3_output_0: 3b013bb4
/model.6/m.0/m.0.1/attn/MatMul_1_output_0: 3e82d009
/model.6/m.0/m.0.1/attn/Transpose_4_output_0: 3e82d009
/model.6/m.0/m.0.1/attn/Reshape_3_output_0: 3e82d009
/model.11/m.0/cv3/act/Sigmoid_output_0: 3c061b9a
/model.20/cv2/act/Mul_output_0: 3ddd26ee
/model.14/m.0/m/m.0/cv1/conv/Conv_output_0: 3e16ba90
/model.20/m.0/m/m.0/cv1/act/Mul_output_0: 3d005e29
/model.8/m.1/m.1.1/attn/MatMul_output_0: 409acbac
/model.6/m.0/m.0.1/attn/Reshape_5_output_0: 3e82d009
/model.6/m.0/m.0.1/attn/Reshape_6_output_0: 3e5cf437
/model.6/m.0/m.0.1/attn/Transpose_6_output_0: 3e82d009
/model.6/m.0/m.0.1/attn/Transpose_7_output_0: 3e5cf437
/model.6/m.0/m.0.1/attn/pe/conv/Conv_output_0: 3ec6fc4b
/model.6/m.0/m.0.1/attn/Add_output_0: 3e981a94
/model.6/m.0/m.0.1/attn/proj/conv/Conv_output_0: 3ddf4ca7
/model.6/m.0/m.0.1/Add_output_0: 3ed5fdfc
/model.6/m.0/m.0.1/mlp/mlp.0/conv/Conv_output_0: 3ed1c274
/model.6/m.0/m.0.1/mlp/mlp.0/act/Sigmoid_output_0: 3c00fc09
/model.6/m.0/m.0.1/mlp/mlp.0/act/Mul_output_0: 3df96026
/model.6/m.0/m.0.1/mlp/mlp.1/conv/Conv_output_0: 3e05cef3
/model.6/m.0/m.0.1/Add_1_output_0: 3f055b12
/model.14/m.0/m/m.1/cv2/act/Mul_output_0: 3ddb2334
/model.21/cv3.2/cv3.2.1/cv3.2.1.1/conv/Conv_output_0: 3fd25b50
/model.6/m.1/m.1.0/attn/qkv/conv/Conv_output_0: 3ec3fb0c
/model.17/m.0/m/m.0/cv1/act/Sigmoid_output_0: 3c020867
/model.8/m.1/m.1.0/attn/Split_output_0: 3e3a757a
/model.17/m.0/m/m.0/Add_output_0: 3d840e3e
/model.20/cv2/act/Sigmoid_output_0: 3c011126
/model.21/cv3.1/cv3.1.0/cv3.1.0.0/act/Mul_output_0: 3f115e49
/model.17/m.0/m/m.0/cv2/act/Sigmoid_output_0: 3c052f85
/model.11/m.0/cv2/act/Sigmoid_output_0: 3c00f2ca
/model.17/cv2/act/Sigmoid_output_0: 3c011211
/model.8/m.1/m.1.0/mlp/mlp.0/act/Mul_output_0: 3de9a2ae
/model.21/Concat_1_output_0: 3f228aaa
/model.21/Reshape_1_output_0: 3f228aaa
/model.8/m.0/m.0.1/mlp/mlp.0/act/Mul_output_0: 3e1210c1
/model.17/m.0/m/m.1/cv2/conv/Conv_output_0: 3e4c8892
/model.21/Unsqueeze_4_output_0: 3f000800
/model.11/m.0/m/m.0/cv2/act/Sigmoid_output_0: 3c00fc55
/model.20/Split_output_0: 3dbba039
/model.21/Transpose_output_0: 3f000800
/model.20/m.0/cv3/act/Mul_output_0: 3e262afb
/model.21/Range_1_output_0: 3efe0bd8
/model.21/cv3.0/cv3.0.1/cv3.0.1.0/act/Mul_output_0: 40875df3
ONNXTRT_Broadcast_606_output: 3b810a14
/model.21/cv3.1/cv3.1.0/cv3.1.0.1/act/Sigmoid_output_0: 3c01d397
/model.21/cv3.2/cv3.2.0/cv3.2.0.0/conv/Conv_output_0: 3f62c73e
/model.14/m.0/m/m.0/cv2/act/Mul_output_0: 3d855e17
/model.21/cv3.1/cv3.1.1/cv3.1.1.0/act/Sigmoid_output_0: 3c010a14
/model.8/m.1/m.1.1/attn/Transpose_7_output_0: 3e6c6213
/model.20/m.0/m/m.0/cv1/act/Sigmoid_output_0: 3c01fa32
/model.8/m.1/m.1.1/mlp/mlp.0/act/Mul_output_0: 3e0d500f
/model.21/Reshape_17_output_0: 3dfa0387
/model.8/m.1/m.1.1/attn/pe/conv/Conv_output_0: 3e608d94
/model.17/m.0/cv3/act/Mul_output_0: 3dc1eecc
/model.8/m.1/m.1.1/attn/Transpose_5_output_0: 3e6c6213
/model.21/cv3.2/cv3.2.1/cv3.2.1.1/act/Mul_output_0: 3fdb175b
/model.15/conv/Conv_output_0: 3e47f000
/model.21/Expand_3_output_0: 3e7e0bd8
/model.21/cv3.0/cv3.0.1/cv3.0.1.1/act/Mul_output_0: 3fa7d2e5
/model.17/cv1/conv/Conv_output_0: 3e548b99
/model.6/m.1/m.1.0/attn/Reshape_output_0: 3ec3fb0c
/model.14/cv2/conv/Conv_output_0: 3e7eb318
/model.6/m.1/m.1.0/attn/Transpose_output_0: 3ec3fb0c
/model.11/m.0/m/m.0/cv1/act/Mul_output_0: 3d451a92
/model.6/m.1/m.1.0/attn/Reshape_1_output_0: 3ec3fb0c
ONNXTRT_Broadcast_806_output: 3e810a14
/model.8/m.1/m.1.0/attn/Softmax_output_0: 3b00e175
/model.8/m.0/m.0.1/Add_output_0: 3ea8f501
/model.8/m.0/m.0.1/attn/Reshape_2_output_0: 3d870ab1
/model.21/ConstantOfShape_2_output_0: 0
/model.8/m.1/m.1.0/attn/qkv/conv/Conv_output_0: 3e29ad83
/model.8/m.1/m.1.1/attn/Mul_1_output_0: 3f5ae9fe
/model.21/Reshape_16_output_0: 3dfa0387
/model.8/m.1/m.1.1/mlp/mlp.0/conv/Conv_output_0: 3e68def6
/model.21/Constant_15_output_0_output: 3c010a14
/model.8/m.1/m.1.1/attn/Softmax_output_0: 3a8b861d
/model.6/m.1/m.1.0/attn/Reshape_2_output_0: 3ec3fb0c
/model.8/m.0/m.0.1/mlp/mlp.0/act/Sigmoid_output_0: 3c04efd9
/model.6/m.1/m.1.0/attn/Transpose_1_output_0: 3ec3fb0c
/model.8/m.0/m.0.1/mlp/mlp.0/conv/Conv_output_0: 3e818a84
/model.12/Resize_output_0: 3dac5854
/model.21/Squeeze_1_output_0_output: 3e010a14
/model.21/Slice_1_output_0: 3debf6e5
/model.13/Concat_output_0: 3eb5bbc6
/model.8/m.0/m.0.1/attn/Transpose_6_output_0: 3d870ab1
/model.6/m.1/m.1.0/attn/Split_output_0: 3e977053
/model.21/Add_8_output_0: 3e810a14
/model.8/m.0/m.0.1/attn/proj/conv/Conv_output_0: 3deb1835
/model.8/m.0/m.0.1/attn/Transpose_4_output_0: 3d870ab1
/model.6/m.1/m.1.0/attn/Split_output_1: 3ec4c695
/model.21/Concat_23_output_0: 3e810a14
/model.8/m.0/m.0.1/mlp/mlp.1/conv/Conv_output_0: 3dcfb14e
/model.21/Add_5_output_0: 3e010a14
/model.6/m.1/m.1.0/attn/Split_output_2: 3e70e32e
/model.6/m.1/m.1.0/attn/Transpose_2_output_0: 3e977053
/model.6/m.1/m.1.0/attn/Transpose_5_output_0: 3e70e32e
/model.6/m.1/m.1.0/attn/MatMul_output_0: 42ea77af
ONNXTRT_Broadcast_234_output: 3ab67d3d
/model.6/m.1/m.1.0/attn/Mul_3_output_0: 41a5cb27
/model.6/m.1/m.1.0/attn/Softmax_output: 3abed892
/model.6/m.1/m.1.0/attn/Softmax_output_0: 3abed892
/model.21/Reshape_2_output_0: 40875a76
/model.21/ConstantOfShape_1_output_0: 0
/model.6/m.1/m.1.0/attn/Transpose_3_output_0: 3abed892
/model.6/m.1/m.1.0/attn/MatMul_1_output_0: 3e06b04f
/model.6/m.1/m.1.0/attn/Transpose_4_output_0: 3e06b04f
/model.6/m.1/m.1.0/attn/Reshape_3_output_0: 3e06b04f
/model.8/m.0/m.0.1/attn/MatMul_1_output_0: 3d870ab1
/model.8/m.0/m.0.1/attn/pe/conv/Conv_output_0: 3e31b46e
/model.21/Split_1_output_0: 3ecb2731
/model.8/m.1/m.1.1/attn/Transpose_4_output_0: 3e0612c1
/model.17/m.0/m/m.0/cv1/conv/Conv_output_0: 3e4b3ec8
/model.6/m.1/m.1.0/attn/Reshape_5_output_0: 3e06b04f
/model.6/m.1/m.1.0/attn/Reshape_6_output_0: 3e70e32e
/model.6/m.1/m.1.0/attn/Transpose_6_output_0: 3e06b04f
/model.6/m.1/m.1.0/attn/Transpose_7_output_0: 3e70e32e
/model.6/m.1/m.1.0/attn/pe/conv/Conv_output_0: 3ea24f9c
/model.6/m.1/m.1.0/attn/Add_output_0: 3ed6481a
/model.6/m.1/m.1.0/attn/proj/conv/Conv_output_0: 3e0d8051
/model.6/m.1/m.1.0/Add_output_0: 3f0b6c31
/model.6/m.1/m.1.0/mlp/mlp.0/conv/Conv_output_0: 3e6d38a4
/model.6/m.1/m.1.0/mlp/mlp.0/act/Sigmoid_output_0: 3c010861
/model.6/m.1/m.1.0/mlp/mlp.0/act/Mul_output_0: 3e0cc658
/model.6/m.1/m.1.0/mlp/mlp.1/conv/Conv_output_0: 3e83002d
/model.6/m.1/m.1.0/Add_1_output_0: 3f20a8ae
/model.8/m.0/m.0.1/attn/Softmax_output_0: 3b014243
/model.17/m.0/cv3/act/Sigmoid_output_0: 3c02f5e7
/model.6/m.1/m.1.1/attn/qkv/conv/Conv_output_0: 3eb2fef0
/model.21/Reshape_11_output_0: 3e7e0bd8
/model.8/m.0/m.0.1/attn/Softmax_output: 3b014243
/model.21/cv2.1/cv2.1.0/conv/Conv_output_0: 3e42e47b
/model.20/m.0/m/m.1/cv1/act/Mul_output_0: 3d641cb8
/model.21/dfl/Transpose_output_0: 3ecb2731
/model.21/cv3.1/cv3.1.1/cv3.1.1.0/act/Mul_output_0: 3f25003e
/model.21/cv3.2/cv3.2.1/cv3.2.1.1/act/Sigmoid_output_0: 3c010a14
/model.21/Concat_24_output_0: 3effc4b4
/model.21/Unsqueeze_3_output_0: 3f000800
/model.21/cv2.0/cv2.0.0/act/Mul_output_0: 3d797be6
/model.21/Concat_20_output_0: 3dfa0387
ONNXTRT_ShapeShuffle_791_output: 3c010a14
/model.21/Reshape_5_output_0: 3f000800
/model.20/m.0/Concat_output_0: 3dbac691
/model.14/m.0/cv3/act/Mul_output_0: 3d985336
/model.21/ConstantOfShape_output_0: 0
/model.11/Concat_output_0: 3e3a592d
/model.21/dfl/Reshape_output_0: 3ecb2731
/model.14/m.0/cv2/conv/Conv_output_0: 3ebf1573
/model.21/Reshape_9_output_0: 3e7e0bd8
/model.8/m.1/m.1.0/attn/MatMul_output_0: 40f435f2
/model.21/cv3.0/cv3.0.0/cv3.0.0.1/act/Mul_output_0: 3eb54989
/model.8/m.1/m.1.1/attn/Transpose_1_output_0: 3e0ef437
/model.14/m.0/m/m.0/cv1/act/Sigmoid_output_0: 3c020d11
/model.11/m.0/Concat_output_0: 3e078ac5
/model.11/m.0/m/m.1/cv1/act/Mul_output_0: 3d5b7f21
/model.11/m.0/cv1/act/Sigmoid_output_0: 3c00fd6b
ONNXTRT_ShapeShuffle_592_output: 3c010a14
/model.21/Range_5_output_0: 3df1f2e6
/model.17/m.0/m/m.1/cv1/conv/Conv_output_0: 3e325888
/model.8/m.1/m.1.1/attn/qkv/conv/Conv_output_0: 3e0ef437
ONNXTRT_Broadcast_445_output: 3ab67d3d
/model.14/cv2/act/Mul_output_0: 3e11065e
/model.8/m.0/m.0.1/attn/Transpose_1_output_0: 3e9550b8
/model.17/m.0/cv1/act/Mul_output_0: 3d0db659
/model.11/m.0/m/m.1/cv2/act/Sigmoid_output_0: 3c00f1d1
/model.14/m.0/cv1/act/Sigmoid_output_0: 3be0899f
/model.6/m.1/m.1.1/attn/Reshape_output_0: 3eb2fef0
/model.21/cv3.2/cv3.2.2/Conv_output_0: 408f583e
/model.6/m.1/m.1.1/attn/Transpose_output_0: 3eb2fef0
/model.8/m.1/m.1.1/attn/proj/conv/Conv_output_0: 3ebb2c28
/model.6/m.1/m.1.1/attn/Reshape_1_output_0: 3eb2fef0
/model.8/m.0/m.0.1/attn/MatMul_output_0: 418656a0
/model.8/m.0/m.0.1/attn/Transpose_5_output_0: 3e7e60ab
/model.8/m.0/m.0.1/attn/Transpose_2_output_0: 3e861ec2
/model.8/m.0/m.0.1/attn/Split_output_2: 3e7e60ab
/model.21/Concat_15_output_0: 3e7e0bd8
ONNXTRT_Broadcast_702_output: 3b810a14
/model.11/cv1/conv/Conv_output_0: 3ed69679
/model.11/m.0/m/m.1/cv2/act/Mul_output_0: 3e1c69ff
/model.20/cv2/conv/Conv_output_0: 3e90be9e
/model.8/m.0/m.0.1/attn/Reshape_1_output_0: 3e9550b8
/model.21/Add_11_output_0: 3f7fc4b4
/model.6/m.1/m.1.1/attn/Reshape_2_output_0: 3eb2fef0
/model.21/Concat_22_output_0: 3f000800
/model.6/m.1/m.1.1/attn/Transpose_1_output_0: 3eb2fef0
/model.11/cv2/act/Sigmoid_output_0: 3c01115c
/model.11/cv1/act/Sigmoid_output_0: 3c010ff7
/model.21/Reshape_output_0: 3fad2df3
/model.8/m.1/m.1.1/mlp/mlp.0/act/Sigmoid_output_0: 3c005018
/model.21/Concat_output_0: 3fad2df3
/model.11/m.0/m/m.0/Add_output_0: 3e1f383c
/model.6/m.1/m.1.1/attn/Split_output_0: 3e58fe18
/model.18/act/Sigmoid_output_0: 3c02d52f
/model.8/m.0/m.0.1/attn/Transpose_output_0: 3e9550b8
/model.8/m.1/m.1.0/attn/Transpose_5_output_0: 3e922247
/model.6/m.1/m.1.1/attn/Split_output_1: 3eb2fef0
ONNXTRT_Broadcast_940_output: 3e810a14
/model.11/m.0/m/m.1/Add_output_0: 3e069deb
/model.8/m.0/m.0.1/attn/Reshape_output_0: 3e9550b8
/model.6/m.1/m.1.1/attn/Split_output_2: 3ec8158d
/model.6/m.1/m.1.1/attn/Transpose_2_output_0: 3e58fe18
/model.6/m.1/m.1.1/attn/Transpose_5_output_0: 3ec8158d
/model.6/m.1/m.1.1/attn/MatMul_output_0: 42eb16aa
ONNXTRT_Broadcast_308_output: 3ab67d3d
/model.6/m.1/m.1.1/attn/Mul_3_output_0: 41a63b92
/model.6/m.1/m.1.1/attn/Softmax_output: 3aa1acda
/model.6/m.1/m.1.1/attn/Softmax_output_0: 3aa1acda
/model.8/m.0/m.0.1/attn/Reshape_3_output_0: 3e7e60ab
/model.21/Div_1_output_0: 3effc4b4
/model.6/m.1/m.1.1/attn/Transpose_3_output_0: 3aa1acda
/model.6/m.1/m.1.1/attn/MatMul_1_output_0: 3ec14ca7
/model.6/m.1/m.1.1/attn/Transpose_4_output_0: 3ec14ca7
/model.6/m.1/m.1.1/attn/Reshape_3_output_0: 3ec14ca7
/model.8/m.0/m.0.1/attn/Split_output_1: 3e8b9d67
/model.8/m.1/m.1.1/Add_1_output_0: 3f2b07d5
/model.8/m.1/m.1.0/attn/Transpose_6_output_0: 3e13301c
/model.9/Resize_output_0: 3dc58d0a
/model.8/m.1/m.1.1/attn/Transpose_6_output_0: 3e0612c1
/model.6/m.1/m.1.1/attn/Reshape_5_output_0: 3ec14ca7
/model.6/m.1/m.1.1/attn/Reshape_6_output_0: 3ec8158d
/model.6/m.1/m.1.1/attn/Transpose_6_output_0: 3ec14ca7
/model.6/m.1/m.1.1/attn/Transpose_7_output_0: 3ec8158d
/model.6/m.1/m.1.1/attn/pe/conv/Conv_output_0: 3ec8a6b2
/model.6/m.1/m.1.1/attn/Add_output_0: 3f45574f
/model.6/m.1/m.1.1/attn/proj/conv/Conv_output_0: 3f452523
/model.6/m.1/m.1.1/Add_output_0: 3f2d5989
/model.6/m.1/m.1.1/mlp/mlp.0/conv/Conv_output_0: 3e624424
/model.6/m.1/m.1.1/mlp/mlp.0/act/Sigmoid_output_0: 3c0105d2
/model.6/m.1/m.1.1/mlp/mlp.0/act/Mul_output_0: 3e0fa692
/model.6/m.1/m.1.1/mlp/mlp.1/conv/Conv_output_0: 3f59b34e
/model.6/m.1/m.1.1/Add_1_output_0: 3f4a052c
/model.6/Concat_output_0: 3f8085c9
/model.6/cv2/conv/Conv_output_0: 3e73c820
/model.6/cv2/act/Sigmoid_output_0: 3c010eab
/model.6/cv2/act/Mul_output_0: 3e18f4a4
/model.7/conv/Conv_output_0: 3ee30e54
/model.7/act/Sigmoid_output_0: 3c01081d
/model.7/act/Mul_output_0: 3e1ea935
/model.8/cv1/conv/Conv_output_0: 3f0f1be7
/model.8/cv1/act/Sigmoid_output_0: 3c010a14
/model.8/cv1/act/Mul_output_0: 3e8ed5db
/model.21/Reshape_12_output_0: 3e7e0bd8
/model.20/m.0/m/m.1/cv2/act/Sigmoid_output_0: 3c0416ac
/model.8/m.0/m.0.0/attn/qkv/conv/Conv_output_0: 3e5352ef
/model.21/Reshape_3_output_0: 3f000800
/model.8/m.1/m.1.0/attn/Transpose_2_output_0: 3e3a757a
/model.21/cv3.1/cv3.1.1/cv3.1.1.1/conv/Conv_output_0: 3f016eac
/model.8/m.1/m.1.1/attn/Split_output_1: 3e0f1898
ONNXTRT_ShapeShuffle_799_output: 0
/model.8/m.1/m.1.0/attn/Add_output_0: 3e84f8aa
/model.8/m.1/m.1.0/attn/Transpose_7_output_0: 3e922247
/model.21/Concat_6_output_0: 40269107
/model.17/m.0/m/m.1/cv1/act/Sigmoid_output_0: 3c01f789
/model.20/m.0/m/m.1/cv2/act/Mul_output_0: 3d5708ca
/model.20/m.0/m/m.0/cv2/act/Mul_output_0: 3d14c3f9
/model.8/m.1/m.1.1/attn/Transpose_output_0: 3e0ef437
/model.20/m.0/m/m.1/cv2/conv/Conv_output_0: 3e8eccd1
/model.17/cv1/act/Sigmoid_output_0: 3c0457f4
/model.14/m.0/cv3/act/Sigmoid_output_0: 3c01d30e
(Unnamed Layer* 1153) [Constant]_output: 0
/model.11/m.0/cv3/act/Mul_output_0: 3db218c6
/model.11/m.0/cv2/act/Mul_output_0: 3de9dec1
/model.21/Slice_output_0: 3dee18a4
/model.21/cv3.1/cv3.1.0/cv3.1.0.0/conv/Conv_output_0: 3f127948
/model.21/Constant_16_output_0_output: 3b810a14
(Unnamed Layer* 1004) [Constant]_output: 0
/model.21/Mul_5_output_0: 4081b2bf
/model.14/m.0/cv2/act/Mul_output_0: 3e940a42
/model.15/act/Mul_output_0: 3e509b9d
/model.11/m.0/m/m.1/cv1/act/Sigmoid_output_0: 3c00e6b8
/model.14/m.0/m/m.1/cv1/act/Mul_output_0: 3c9a5c75
/model.17/cv1/act/Mul_output_0: 3db1aa3a
/model.14/m.0/m/m.0/Add_output_0: 3d85ab78
/model.21/cv3.1/cv3.1.0/cv3.1.0.1/act/Mul_output_0: 3e5d40c8
ONNXTRT_ShapeShuffle_602_output: 3c010a14
/model.21/cv3.1/cv3.1.0/cv3.1.0.1/conv/Conv_output_0: 3edb26fb
/model.17/m.0/cv1/act/Sigmoid_output_0: 3c01f00d
/model.8/cv2/act/Mul_output_0: 3dc58d0a
/model.8/m.1/m.1.0/Add_output_0: 3ef0e1f1
/model.21/Unsqueeze_10_output_0: 3dfa0387
ONNXTRT_ShapeShuffle_687_output: 3c010a14
/model.8/m.1/m.1.0/attn/Reshape_2_output_0: 3e13301c
/model.8/m.0/m.0.0/attn/Reshape_output_0: 3e5352ef
ONNXTRT_Broadcast_608_output: 3b810a14
/model.8/cv2/conv/Conv_output_0: 3e98a5f0
/model.8/m.0/m.0.0/attn/Transpose_output_0: 3e5352ef
/model.8/m.0/m.0.0/attn/Reshape_1_output_0: 3e5352ef
/model.8/m.0/m.0.0/attn/Transpose_1_output_0: 3e5352ef
/model.21/cv3.1/cv3.1.2/Conv_output_0: 3f1cf804
/model.20/cv1/act/Sigmoid_output_0: 3c01f391
/model.17/m.0/cv2/act/Mul_output_0: 3dc472f2
/model.21/cv3.0/cv3.0.1/cv3.0.1.1/act/Sigmoid_output_0: 3c010a14
/model.21/Add_10_output_0: 3f017013
/model.21/Reshape_15_output_0: 3dfa0387
/model.8/m.0/m.0.0/attn/Split_output_0: 3e473875
/model.21/Reshape_4_output_0: 3f000800
/model.21/cv3.0/cv3.0.1/cv3.0.1.1/conv/Conv_output_0: 40cd1e34
/model.21/cv2.2/cv2.2.2/Conv_output_0: 3f88bcd8
/model.8/m.0/m.0.0/attn/Split_output_1: 3e58571a
/model.21/cv2.1/cv2.1.2/Conv_output_0: 3f1a4704
/model.8/m.1/m.1.1/attn/Reshape_2_output_0: 3e0612c1
/model.8/m.0/m.0.1/attn/Transpose_7_output_0: 3e7e60ab
/model.8/m.0/m.0.0/attn/Split_output_2: 3df49a58
/model.8/m.0/m.0.0/attn/Transpose_2_output_0: 3e473875
/model.8/m.0/m.0.0/attn/Transpose_5_output_0: 3df49a58
/model.8/m.0/m.0.0/attn/MatMul_output_0: 414b7f1f
/model.8/m.0/m.0.0/attn/Reshape_3_output_0: 3df49a58
ONNXTRT_Broadcast_378_output: 3ab67d3d
/model.8/m.0/m.0.0/attn/Mul_1_output_0: 400fe4d1
/model.8/m.0/m.0.0/attn/Transpose_7_output_0: 3df49a58
/model.8/m.0/m.0.0/attn/Softmax_output: 3a814285
/model.8/m.0/m.0.0/attn/Softmax_output_0: 3a814285
/model.21/cv3.2/cv3.2.1/cv3.2.1.0/act/Sigmoid_output_0: 3c010a14
/model.8/m.1/m.1.1/attn/Transpose_3_output_0: 3a8b861d
/model.8/m.0/m.0.0/attn/pe/conv/Conv_output_0: 3e18430e
/model.8/m.0/m.0.0/attn/Transpose_3_output_0: 3a814285
/model.8/m.0/m.0.0/attn/MatMul_1_output_0: 3d64dc2a
/model.8/m.0/m.0.0/attn/Transpose_4_output_0: 3d64dc2a
/model.8/m.0/m.0.0/attn/Reshape_2_output_0: 3d64dc2a
/model.8/m.0/m.0.0/attn/Transpose_6_output_0: 3d64dc2a
/model.8/m.0/m.0.0/attn/Add_output_0: 3eb6ef08
/model.8/m.0/m.0.0/attn/proj/conv/Conv_output_0: 3e083b02
/model.8/m.0/m.0.0/Add_output_0: 3e8a1edc
/model.8/m.0/m.0.0/mlp/mlp.0/conv/Conv_output_0: 3ec26c55
/model.8/m.0/m.0.0/mlp/mlp.0/act/Sigmoid_output_0: 3c00df1e
/model.8/m.0/m.0.0/mlp/mlp.0/act/Mul_output_0: 3dfef283
/model.8/m.0/m.0.0/mlp/mlp.1/conv/Conv_output_0: 3df5f83f
/model.8/m.0/m.0.0/Add_1_output_0: 3e7039a5
/model.21/Reshape_10_output_0: 3e7e0bd8
/model.20/m.0/cv2/conv/Conv_output_0: 3df280dc
/model.8/m.0/m.0.1/attn/qkv/conv/Conv_output_0: 3e9550b8
/model.21/Reshape_14_output_0: 3dfa0387
/model.20/m.0/m/m.1/cv1/act/Sigmoid_output_0: 3c020495
ONNXTRT_Broadcast_796_output: 3b810a14
/model.21/Sigmoid_output_0: 3b39fbdf
/model.21/Reshape_13_output_0: 3dfa0387
/model.21/cv2.0/cv2.0.2/Conv_output_0: 3ec5b423
/model.21/Expand_1_output_0: 3f000800
ONNXTRT_Broadcast_616_output: 3d810a14
/model.19/Concat_output_0: 3def7f1a
/model.21/cv3.0/cv3.0.0/cv3.0.0.1/act/Sigmoid_output_0: 3c010a14
/model.8/m.1/m.1.0/attn/pe/conv/Conv_output_0: 3e067007
/model.21/Split_1_output_1: 40269107
/model.17/m.0/cv2/act/Sigmoid_output_0: 3c01f3ba
/model.17/Concat_output_0: 3de9722f
/model.14/m.0/m/m.1/Add_output_0: 3df5f653
/model.20/m.0/cv1/act/Mul_output_0: 3d740616
/model.21/cv3.0/cv3.0.0/cv3.0.0.0/act/Sigmoid_output_0: 3c010a14
/model.11/m.0/m/m.0/cv1/act/Sigmoid_output_0: 3c00c4c7
/model.14/cv2/act/Sigmoid_output_0: 3c0108fe
/model.21/Add_2_output_0: 3d810a14
/model.21/Sub_1_output_0: 3e6d2300
